<unk>	0
▁t	-0
ng	-1
▁c	-2
▁đ	-3
nh	-4
▁th	-5
▁l	-6
▁m	-7
▁v	-8
▁h	-9
▁b	-10
▁ch	-11
▁n	-12
▁k	-13
▁nh	-14
▁s	-15
▁tr	-16
▁kh	-17
▁g	-18
▁ng	-19
▁là	-20
▁p	-21
ông	-22
▁d	-23
▁r	-24
▁a	-25
▁ph	-26
▁cá	-27
▁gi	-28
ên	-29
▁và	-30
ời	-31
▁có	-32
qu	-33
▁qu	-34
▁không	-35
ột	-36
ình	-37
iệ	-38
▁một	-39
iế	-40
▁củ	-41
ới	-42
▁của	-43
▁x	-44
ượ	-45
ôi	-46
ất	-47
on	-48
ười	-49
ày	-50
ại	-51
▁the	-52
▁như	-53
ch	-54
▁nó	-55
▁người	-56
ong	-57
ược	-58
ay	-59
uy	-60
▁đi	-61
▁được	-62
▁mà	-63
▁thì	-64
an	-65
▁cho	-66
▁cái	-67
in	-68
▁mình	-69
ững	-70
ấy	-71
▁những	-72
▁tôi	-73
er	-74
ân	-75
ạn	-76
ều	-77
▁e	-78
▁w	-79
▁này	-80
▁đó	-81
▁trong	-82
▁các	-83
ai	-84
ây	-85
ải	-86
▁ngh	-87
ần	-88
▁đã	-89
▁với	-90
▁anh	-91
▁ta	-92
▁cũ	-93
▁sa	-94
▁để	-95
▁con	-96
ướ	-97
▁chú	-98
▁cũng	-99
▁bạn	-100
▁sẽ	-101
▁ra	-102
▁o	-103
ươ	-104
▁cả	-105
ồi	-106
▁lại	-107
iên	-108
en	-109
uố	-110
▁em	-111
ến	-112
▁làm	-113
▁thể	-114
▁khi	-115
▁an	-116
▁to	-117
ước	-118
▁ở	-119
ết	-120
ang	-121
ác	-122
▁phải	-123
▁họ	-124
ành	-125
▁ho	-126
ầu	-127
ed	-128
âu	-129
inh	-130
▁đến	-131
▁chúng	-132
ườ	-133
▁i	-134
▁về	-135
iết	-136
ương	-137
ường	-138
ào	-139
▁rồi	-140
iện	-141
ức	-142
▁f	-143
ơn	-144
▁nhưng	-145
ăm	-146
ật	-147
ận	-148
ực	-149
àng	-150
▁từ	-151
▁nói	-152
òn	-153
iều	-154
▁y	-155
àn	-156
at	-157
ou	-158
ài	-159
▁độ	-160
▁vào	-161
ằng	-162
▁việ	-163
ính	-164
▁thế	-165
ền	-166
▁gì	-167
ùng	-168
es	-169
▁sự	-170
ao	-171
ăn	-172
▁còn	-173
iể	-174
ản	-175
▁số	-176
or	-177
▁and	-178
ar	-179
▁nhiều	-180
▁đây	-181
iến	-182
anh	-183
▁hai	-184
ậy	-185
▁công	-186
▁chỉ	-187
ối	-188
▁of	-189
ung	-190
▁rất	-191
▁ông	-192
ưa	-193
is	-194
▁thấy	-195
ữa	-196
▁cô	-197
▁nhà	-198
▁đầu	-199
ing	-200
▁nào	-201
úc	-202
am	-203
▁việc	-204
át	-205
▁vậy	-206
▁biết	-207
▁ti	-208
êu	-209
▁bị	-210
ơi	-211
ôn	-212
ồng	-213
▁chuy	-214
ăng	-215
▁sau	-216
ll	-217
▁in	-218
ắt	-219
as	-220
▁vì	-221
▁giờ	-222
▁hơn	-223
▁thành	-224
it	-225
áng	-226
ái	-227
ẫn	-228
ọi	-229
ộc	-230
▁nên	-231
▁trên	-232
▁tiế	-233
ắc	-234
▁lu	-235
▁năm	-236
ếu	-237
▁ngày	-238
ện	-239
án	-240
ục	-241
▁đang	-242
au	-243
ập	-244
ích	-245
▁sao	-246
▁điều	-247
òng	-248
▁do	-249
ổi	-250
âm	-251
▁chị	-252
▁chính	-253
▁lên	-254
ặt	-255
▁đị	-256
uộc	-257
re	-258
ội	-259
uốn	-260
▁lo	-261
▁mới	-262
▁theo	-263
▁nghĩ	-264
ánh	-265
▁nhất	-266
▁tại	-267
em	-268
▁quan	-269
▁cách	-270
▁hay	-271
ặc	-272
▁nếu	-273
▁ba	-274
▁cùng	-275
áo	-276
▁hiện	-277
▁nữa	-278
▁khác	-279
ỏi	-280
om	-281
▁thời	-282
ách	-283
▁nước	-284
▁học	-285
▁trước	-286
iểu	-287
▁nhân	-288
▁muốn	-289
ốc	-290
ấn	-291
▁mẹ	-292
▁cảm	-293
ứng	-294
ìn	-295
▁rằng	-296
▁qua	-297
▁quy	-298
▁wh	-299
ống	-300
▁he	-301
▁chuyện	-302
ạo	-303
ảo	-304
ạnh	-305
iệu	-306
▁động	-307
▁ăn	-308
▁u	-309
êm	-310
▁vẫn	-311
▁be	-312
▁tư	-313
▁ấy	-314
▁thu	-315
▁tự	-316
▁mọi	-317
le	-318
▁bu	-319
ượng	-320
▁thôi	-321
ad	-322
▁cứ	-323
▁lúc	-324
▁thứ	-325
▁nhận	-326
▁thực	-327
▁quá	-328
▁tới	-329
▁sống	-330
im	-331
▁cuộc	-332
▁kho	-333
ừng	-334
ắn	-335
▁đâu	-336
▁định	-337
▁hàng	-338
▁gia	-339
ởng	-340
ia	-341
▁đồng	-342
▁luôn	-343
▁cần	-344
ọng	-345
úng	-346
ot	-347
▁ngo	-348
ỗi	-349
ấp	-350
ậu	-351
ốt	-352
▁cơ	-353
▁bà	-354
▁ai	-355
iệt	-356
▁ý	-357
ạt	-358
▁lớ	-359
ấu	-360
▁tình	-361
▁tu	-362
▁dụ	-363
áp	-364
▁nay	-365
▁lý	-366
▁nhìn	-367
▁bên	-368
▁tiếp	-369
▁tâm	-370
▁chưa	-371
▁mặt	-372
ám	-373
▁tuy	-374
ừa	-375
▁bản	-376
▁hết	-377
▁vị	-378
▁tin	-379
ắm	-380
▁phần	-381
ảng	-382
ắng	-383
▁nhau	-384
uống	-385
ld	-386
▁bộ	-387
et	-388
▁it	-389
▁sh	-390
▁hình	-391
ẳng	-392
ôm	-393
ửa	-394
ìm	-395
▁nguy	-396
▁đối	-397
▁tiền	-398
ce	-399
ồn	-400
ly	-401
▁thật	-402
▁mu	-403
▁bằng	-404
▁sinh	-405
ent	-406
▁that	-407
▁thân	-408
▁câu	-409
ươi	-410
▁was	-411
se	-412
▁thường	-413
▁lần	-414
gh	-415
▁trở	-416
▁trường	-417
ọn	-418
▁hành	-419
▁nhiên	-420
▁xu	-421
▁khó	-422
▁bây	-423
▁phát	-424
▁tìm	-425
▁on	-426
▁yêu	-427
id	-428
▁trung	-429
▁bắt	-430
ve	-431
st	-432
ầm	-433
▁đường	-434
▁lớn	-435
▁đúng	-436
▁bố	-437
▁so	-438
iệm	-439
▁nghe	-440
▁tay	-441
▁bao	-442
▁gian	-443
▁hã	-444
ởi	-445
▁năng	-446
▁điể	-447
▁má	-448
▁1	-449
ion	-450
▁đều	-451
al	-452
▁dụng	-453
ợp	-454
ảy	-455
▁tất	-456
▁đấy	-457
▁thông	-458
▁quốc	-459
▁nam	-460
▁hỏi	-461
▁cao	-462
▁lời	-463
▁hợp	-464
ow	-465
ịch	-466
▁ngoài	-467
▁chí	-468
▁hôm	-469
▁toàn	-470
▁you	-471
▁tốt	-472
▁bảo	-473
▁điểm	-474
ặp	-475
▁cậu	-476
▁st	-477
▁for	-478
ệnh	-479
▁mươi	-480
▁hiểu	-481
▁giới	-482
▁dân	-483
ạng	-484
▁đo	-485
▁di	-486
▁giá	-487
▁quân	-488
ith	-489
▁vô	-490
▁hội	-491
▁as	-492
▁thức	-493
▁chứ	-494
▁chủ	-495
ter	-496
▁vừa	-497
óng	-498
▁bất	-499
úp	-500
▁viên	-501
▁bình	-502
ầy	-503
▁kinh	-504
ic	-505
▁dự	-506
▁thương	-507
▁xem	-508
▁kết	-509
▁li	-510
ướng	-511
▁trọng	-512
▁đại	-513
▁tính	-514
iển	-515
ễn	-516
▁tổ	-517
iệp	-518
▁lực	-519
▁đề	-520
▁chiến	-521
▁2	-522
ợi	-523
▁trình	-524
▁his	-525
▁thích	-526
út	-527
▁xin	-528
▁tiếng	-529
▁kỳ	-530
▁with	-531
▁su	-532
▁giả	-533
▁lấy	-534
▁hãy	-535
ảnh	-536
ver	-537
▁đời	-538
▁giúp	-539
▁chiế	-540
ạc	-541
ir	-542
uối	-543
▁vu	-544
▁thị	-545
▁gặp	-546
▁tho	-547
ưởng	-548
▁sản	-549
áu	-550
▁phòng	-551
▁phí	-552
ẩn	-553
ển	-554
▁bỏ	-555
▁tạo	-556
▁bởi	-557
▁tiên	-558
ọc	-559
▁quả	-560
▁trăm	-561
▁thủ	-562
▁giải	-563
▁dư	-564
▁hoặc	-565
▁tập	-566
▁gọi	-567
▁xe	-568
▁sử	-569
ur	-570
▁ngay	-571
▁thêm	-572
▁đưa	-573
▁tháng	-574
▁nha	-575
▁xuất	-576
▁ha	-577
▁her	-578
▁chẳng	-579
ạy	-580
▁is	-581
▁liên	-582
▁lượng	-583
▁đánh	-584
▁vụ	-585
ẩm	-586
▁sai	-587
▁cầu	-588
th	-589
ẹp	-590
▁mỗi	-591
▁re	-592
▁chu	-593
▁quyết	-594
▁vật	-595
▁khu	-596
▁phương	-597
▁chắc	-598
óc	-599
▁nhỏ	-600
▁mấy	-601
ght	-602
ấm	-603
▁sáng	-604
▁co	-605
▁xuống	-606
ain	-607
▁đất	-608
▁thay	-609
▁tác	-610
▁bệnh	-611
▁mất	-612
ạch	-613
▁hoàn	-614
▁tế	-615
▁nơi	-616
▁mắt	-617
ộng	-618
▁lắm	-619
ét	-620
▁dù	-621
▁việt	-622
▁lòng	-623
▁not	-624
▁nghĩa	-625
ứa	-626
▁tài	-627
▁tên	-628
▁had	-629
eo	-630
▁từng	-631
▁mạnh	-632
▁trị	-633
▁biệt	-634
ạm	-635
▁mang	-636
▁sức	-637
▁khiến	-638
▁dùng	-639
▁tiêu	-640
ít	-641
▁bé	-642
ỉnh	-643
▁á	-644
ct	-645
▁đổi	-646
▁hệ	-647
▁đình	-648
▁gần	-649
▁bác	-650
▁mười	-651
ắp	-652
▁nghiệp	-653
▁trời	-654
▁chơi	-655
▁vấn	-656
▁cố	-657
ép	-658
ess	-659
▁mua	-660
▁loại	-661
▁gh	-662
▁ảnh	-663
▁at	-664
▁trả	-665
▁minh	-666
▁tưởng	-667
▁đội	-668
▁cảnh	-669
▁chi	-670
▁đẹp	-671
▁pháp	-672
▁fr	-673
▁văn	-674
▁pr	-675
▁cuối	-676
uyền	-677
▁chiếc	-678
ut	-679
óa	-680
▁chất	-681
▁nhớ	-682
▁máy	-683
▁but	-684
▁báo	-685
el	-686
▁sĩ	-687
▁càng	-688
▁chết	-689
▁trí	-690
▁cây	-691
ould	-692
▁đủ	-693
ằm	-694
▁khách	-695
▁tục	-696
od	-697
▁nguyên	-698
▁lã	-699
▁mày	-700
▁đặc	-701
▁chân	-702
iểm	-703
▁cấp	-704
▁giống	-705
▁sách	-706
▁se	-707
▁đừng	-708
▁gái	-709
▁bán	-710
▁ri	-711
▁phía	-712
▁we	-713
▁à	-714
▁quý	-715
▁đơn	-716
iếu	-717
▁tăng	-718
and	-719
ill	-720
ặng	-721
nd	-722
▁mỹ	-723
▁cổ	-724
▁khoảng	-725
▁chồng	-726
▁thần	-727
▁trẻ	-728
▁dễ	-729
▁đồ	-730
▁vui	-731
▁she	-732
▁hóa	-733
ốn	-734
▁vợ	-735
▁rõ	-736
▁xong	-737
ke	-738
▁sợ	-739
ere	-740
▁chọn	-741
▁hiệu	-742
▁lư	-743
▁sát	-744
▁dưới	-745
ệt	-746
▁hoa	-747
▁cửa	-748
▁giữa	-749
▁điện	-750
▁quay	-751
▁triển	-752
ck	-753
▁mi	-754
▁kể	-755
▁him	-756
▁mở	-757
▁ngồi	-758
▁nội	-759
ậm	-760
▁chia	-761
▁lâu	-762
▁phẩm	-763
▁dẫn	-764
▁bước	-765
▁lập	-766
▁thống	-767
▁ít	-768
▁đạo	-769
▁chịu	-770
▁bốn	-771
▁duy	-772
▁kia	-773
▁huy	-774
00	-775
▁đứng	-776
▁địa	-777
▁ơi	-778
▁giáo	-779
▁chuyển	-780
▁chạy	-781
est	-782
▁thanh	-783
▁tỉnh	-784
▁tức	-785
pp	-786
▁bàn	-787
▁biến	-788
▁phụ	-789
▁đứa	-790
iếm	-791
▁nhanh	-792
▁me	-793
▁tương	-794
▁tử	-795
▁vi	-796
▁tiến	-797
▁tuổi	-798
▁xa	-799
▁bài	-800
▁thi	-801
▁hướng	-802
▁khỏi	-803
▁chức	-804
▁thiết	-805
▁đáng	-806
ềm	-807
▁ạ	-808
▁quyền	-809
ãi	-810
▁dài	-811
▁ty	-812
▁xã	-813
▁whi	-814
▁đặt	-815
▁sang	-816
▁thái	-817
▁tranh	-818
êng	-819
▁ne	-820
▁tượng	-821
▁tích	-822
▁cứu	-823
all	-824
▁chỗ	-825
▁đông	-826
▁giữ	-827
iêu	-828
▁tối	-829
▁lợi	-830
▁màu	-831
▁ma	-832
àu	-833
▁hu	-834
▁hoàng	-835
▁khả	-836
▁chút	-837
▁cha	-838
▁giao	-839
ón	-840
▁they	-841
▁chứng	-842
▁mục	-843
▁ban	-844
▁diễn	-845
▁hồi	-846
▁đàn	-847
li	-848
▁doanh	-849
▁3	-850
▁lẽ	-851
▁nè	-852
▁chung	-853
▁cực	-854
▁nữ	-855
▁xác	-856
▁kiến	-857
▁trái	-858
▁sở	-859
òa	-860
▁all	-861
▁mù	-862
▁suy	-863
▁khí	-864
os	-865
▁my	-866
▁by	-867
▁trang	-868
▁liệu	-869
▁thằng	-870
▁dạ	-871
ri	-872
▁ké	-873
▁vũ	-874
▁vực	-875
▁đau	-876
▁đôi	-877
▁de	-878
▁truyền	-879
▁nổi	-880
▁tham	-881
▁đấu	-882
▁nghiệm	-883
ers	-884
▁com	-885
▁tinh	-886
óm	-887
ard	-888
▁phân	-889
▁trai	-890
▁án	-891
▁vài	-892
▁tao	-893
ore	-894
▁kế	-895
▁vẻ	-896
▁hoạt	-897
▁go	-898
▁no	-899
▁bóng	-900
▁hả	-901
▁nằm	-902
▁this	-903
▁chế	-904
▁mặc	-905
▁nghi	-906
▁ngủ	-907
▁chín	-908
▁mức	-909
ĩnh	-910
▁phố	-911
▁have	-912
▁coi	-913
▁phục	-914
▁triệu	-915
▁	-916
n	-917
h	-918
t	-919
i	-920
c	-921
g	-922
a	-923
m	-924
u	-925
o	-926
đ	-927
à	-928
l	-929
r	-930
e	-931
y	-932
s	-933
v	-934
ư	-935
b	-936
á	-937
k	-938
ô	-939
p	-940
d	-941
ó	-942
ì	-943
ế	-944
ạ	-945
ộ	-946
ả	-947
ấ	-948
ờ	-949
ê	-950
â	-951
ớ	-952
ố	-953
ệ	-954
ề	-955
ể	-956
ủ	-957
ậ	-958
ợ	-959
ơ	-960
q	-961
ú	-962
ầ	-963
ữ	-964
x	-965
ị	-966
ọ	-967
ứ	-968
í	-969
ồ	-970
ự	-971
ã	-972
w	-973
ở	-974
f	-975
ă	-976
ắ	-977
ò	-978
ũ	-979
ừ	-980
ụ	-981
ẽ	-982
ặ	-983
ù	-984
ổ	-985
ỏ	-986
ỉ	-987
ằ	-988
ử	-989
ý	-990
é	-991
ĩ	-992
ẹ	-993
ẫ	-994
ỗ	-995
ẻ	-996
ẩ	-997
ễ	-998
0	-999
è	-1000
ẳ	-1001
1	-1002
2	-1003
ỡ	-1004
ỹ	-1005
õ	-1006
ỳ	-1007
3	-1008
ỷ	-1009
5	-1010
z	-1011
4	-1012
9	-1013
6	-1014
ẵ	-1015
7	-1016
8	-1017
-	-1018
ỵ	-1019
&	-1020
>	-1021
<	-1022
