t
##ng
c
đ
##nh
th
l
m
v
h
b
ch
n
k
nh
s
tr
kh
g
ng
là
p
##ông
d
r
a
ph
cá
gi
##ên
và
##ời
có
##qu
qu
không
##ột
##ình
##iệ
một
##iế
củ
##ới
của
x
##ượ
##ôi
##ất
##on
##ười
##ày
##ại
the
như
##ch
nó
người
##ong
##ược
##ay
##uy
đi
được
mà
thì
##an
cho
cái
##in
mình
##ững
##ấy
những
tôi
##er
##ân
##ạn
##ều
e
w
này
đó
trong
các
##ai
##ây
##ải
ngh
##ần
đã
với
anh
ta
cũ
sa
để
con
##ướ
chú
cũng
bạn
sẽ
ra
o
##ươ
cả
##ồi
lại
##iên
##en
##uố
em
##ến
làm
thể
khi
an
to
##ước
ở
##ết
##ang
##ác
phải
họ
##ành
ho
##ầu
##ed
##âu
##inh
đến
chúng
##ườ
i
về
##iết
##ương
##ường
##ào
rồi
##iện
##ức
f
##ơn
nhưng
##ăm
##ật
##ận
##ực
##àng
từ
nói
##òn
##iều
y
##àn
##at
##ou
##ài
độ
vào
##ằng
việ
##ính
thế
##ền
gì
##ùng
##es
sự
##ao
##ăn
còn
##iể
##ản
số
##or
and
##ar
nhiều
đây
##iến
##anh
hai
##ậy
công
chỉ
##ối
of
##ung
rất
ông
##ưa
##is
thấy
##ữa
cô
nhà
đầu
##ing
nào
##úc
##am
việc
##át
vậy
biết
ti
##êu
bị
##ơi
##ôn
##ồng
chuy
##ăng
sau
##ll
in
##ắt
##as
vì
giờ
hơn
thành
##it
##áng
##ái
##ẫn
##ọi
##ộc
nên
trên
tiế
##ắc
lu
năm
##ếu
ngày
##ện
##án
##ục
đang
##au
##ập
##ích
sao
điều
##òng
do
##ổi
##âm
chị
chính
lên
##ặt
đị
##uộc
##re
##ội
##uốn
lo
mới
theo
nghĩ
##ánh
nhất
tại
##em
quan
cách
hay
##ặc
nếu
ba
cùng
##áo
hiện
nữa
khác
##ỏi
##om
thời
##ách
nước
học
trước
##iểu
nhân
muốn
##ốc
##ấn
mẹ
cảm
##ứng
##ìn
rằng
qua
quy
wh
##ống
he
chuyện
##ạo
##ảo
##ạnh
##iệu
động
ăn
u
##êm
vẫn
be
tư
ấy
thu
tự
mọi
##le
bu
##ượng
thôi
##ad
cứ
lúc
thứ
nhận
thực
quá
tới
sống
##im
cuộc
kho
##ừng
##ắn
đâu
định
hàng
gia
##ởng
##ia
đồng
luôn
cần
##ọng
##úng
##ot
ngo
##ỗi
##ấp
##ậu
##ốt
cơ
bà
ai
##iệt
ý
##ạt
lớ
##ấu
tình
tu
dụ
##áp
nay
lý
nhìn
bên
tiếp
tâm
chưa
mặt
##ám
tuy
##ừa
bản
hết
vị
tin
##ắm
phần
##ảng
##ắng
nhau
##uống
##ld
bộ
##et
it
sh
hình
##ẳng
##ôm
##ửa
##ìm
nguy
đối
tiền
##ce
##ồn
##ly
thật
mu
bằng
sinh
##ent
that
thân
câu
##ươi
was
##se
thường
lần
##gh
trở
trường
##ọn
hành
nhiên
xu
khó
bây
phát
tìm
on
yêu
##id
trung
bắt
##ve
##st
##ầm
đường
lớn
đúng
bố
so
##iệm
nghe
tay
bao
gian
hã
##ởi
năng
điể
má
1
##ion
đều
##al
dụng
##ợp
##ảy
tất
đấy
thông
quốc
nam
hỏi
cao
lời
hợp
##ow
##ịch
ngoài
chí
hôm
toàn
you
tốt
bảo
điểm
##ặp
cậu
st
for
##ệnh
mươi
hiểu
giới
dân
##ạng
đo
di
giá
quân
##ith
vô
hội
as
thức
chứ
chủ
##ter
vừa
##óng
bất
##úp
viên
bình
##ầy
kinh
##ic
dự
thương
xem
kết
li
##ướng
trọng
đại
tính
##iển
##ễn
tổ
##iệp
lực
đề
chiến
2
##ợi
trình
his
thích
##út
xin
tiếng
kỳ
with
su
giả
lấy
hãy
##ảnh
##ver
đời
giúp
chiế
##ạc
##ir
##uối
vu
thị
gặp
tho
##ưởng
sản
##áu
phòng
phí
##ẩn
##ển
bỏ
tạo
bởi
tiên
##ọc
quả
trăm
thủ
giải
dư
hoặc
tập
gọi
xe
sử
##ur
ngay
thêm
đưa
tháng
nha
xuất
ha
her
chẳng
##ạy
is
liên
lượng
đánh
vụ
##ẩm
sai
cầu
##th
##ẹp
mỗi
re
chu
quyết
vật
khu
phương
chắc
##óc
nhỏ
mấy
##ght
##ấm
sáng
co
xuống
##ain
đất
thay
tác
bệnh
mất
##ạch
hoàn
tế
nơi
mắt
##ộng
lắm
##ét
dù
việt
lòng
not
nghĩa
##ứa
tài
tên
had
##eo
từng
mạnh
trị
biệt
##ạm
mang
sức
khiến
dùng
tiêu
##ít
bé
##ỉnh
á
##ct
đổi
hệ
đình
gần
bác
mười
##ắp
nghiệp
trời
chơi
vấn
cố
##ép
##ess
mua
loại
gh
ảnh
at
trả
minh
tưởng
đội
cảnh
chi
đẹp
pháp
fr
văn
pr
cuối
##uyền
chiếc
##ut
##óa
chất
nhớ
máy
but
báo
##el
sĩ
càng
chết
trí
cây
##ould
đủ
##ằm
khách
tục
##od
nguyên
lã
mày
đặc
chân
##iểm
cấp
giống
sách
se
đừng
gái
bán
ri
phía
we
à
quý
đơn
##iếu
tăng
##and
##ill
##ặng
##nd
mỹ
cổ
khoảng
chồng
thần
trẻ
dễ
đồ
vui
she
hóa
##ốn
vợ
rõ
xong
##ke
sợ
##ere
chọn
hiệu
lư
sát
dưới
##ệt
hoa
cửa
giữa
điện
quay
triển
##ck
mi
kể
him
mở
ngồi
nội
##ậm
chia
lâu
phẩm
dẫn
bước
lập
thống
ít
đạo
chịu
bốn
duy
kia
huy
##00
đứng
địa
ơi
giáo
chuyển
chạy
##est
thanh
tỉnh
tức
##pp
bàn
biến
phụ
đứa
##iếm
nhanh
me
tương
tử
vi
tiến
tuổi
xa
bài
thi
hướng
khỏi
chức
thiết
đáng
##ềm
ạ
quyền
##ãi
dài
ty
xã
whi
đặt
sang
thái
tranh
##êng
ne
tượng
tích
cứu
##all
chỗ
đông
giữ
##iêu
tối
lợi
màu
ma
##àu
hu
hoàng
khả
chút
cha
giao
##ón
they
chứng
mục
ban
diễn
hồi
đàn
##li
doanh
3
lẽ
nè
chung
cực
nữ
xác
kiến
trái
sở
##òa
all
mù
suy
khí
##os
my
by
trang
liệu
thằng
dạ
##ri
ké
vũ
vực
đau
đôi
de
truyền
nổi
tham
đấu
nghiệm
##ers
com
tinh
##óm
##ard
phân
trai
án
vài
tao
##ore
kế
vẻ
hoạt
go
no
bóng
hả
nằm
this
chế
mặc
nghi
ngủ
chín
mức
##ĩnh
phố
have
coi
phục
triệu
▁
##n
##h
##t
##i
##c
##g
##a
##m
##u
##o
##đ
##à
##l
##r
##e
##y
##s
##v
##ư
##b
##á
##k
##ô
##p
##d
##ó
##ì
##ế
##ạ
##ộ
##ả
##ấ
##ờ
##ê
##â
##ớ
##ố
##ệ
##ề
##ể
##ủ
##ậ
##ợ
##ơ
##q
##ú
##ầ
##ữ
##x
##ị
##ọ
##ứ
##í
##ồ
##ự
##ã
##w
##ở
##f
##ă
##ắ
##ò
##ũ
##ừ
##ụ
##ẽ
##ặ
##ù
##ổ
##ỏ
##ỉ
##ằ
##ử
##ý
##é
##ĩ
##ẹ
##ẫ
##ỗ
##ẻ
##ẩ
##ễ
##0
##è
##ẳ
##1
##2
##ỡ
##ỹ
##õ
##ỳ
##3
##ỷ
##5
##z
##4
##9
##6
##ẵ
##7
##8
##-
##ỵ
##&
##>
##<
