<unk>	0
<s>	0
</s>	0
▁t	-0
▁c	-1
ng	-2
▁đ	-3
▁n	-4
▁m	-5
▁l	-6
▁th	-7
▁v	-8
▁b	-9
▁ch	-10
▁h	-11
nh	-12
▁k	-13
▁nh	-14
▁s	-15
▁kh	-16
▁tr	-17
▁là	-18
▁g	-19
▁ng	-20
▁cá	-21
ông	-22
▁r	-23
▁d	-24
▁p	-25
▁ph	-26
ên	-27
▁gi	-28
▁có	-29
▁và	-30
ời	-31
ình	-32
▁không	-33
▁q	-34
▁qu	-35
ột	-36
ày	-37
▁x	-38
iệ	-39
▁một	-40
iế	-41
ới	-42
ất	-43
▁nó	-44
▁cái	-45
ủa	-46
ượ	-47
▁các	-48
▁của	-49
▁thì	-50
ười	-51
▁như	-52
anh	-53
ại	-54
▁mà	-55
▁mình	-56
ạn	-57
▁này	-58
ôi	-59
▁người	-60
▁ta	-61
▁cho	-62
ược	-63
▁đi	-64
ai	-65
▁được	-66
ây	-67
ong	-68
▁bạn	-69
uy	-70
ấy	-71
em	-72
▁đó	-73
ều	-74
ân	-75
on	-76
ay	-77
ững	-78
úng	-79
ần	-80
▁anh	-81
▁sẽ	-82
▁những	-83
ải	-84
▁để	-85
ươ	-86
▁trong	-87
▁với	-88
▁cũ	-89
ồi	-90
▁em	-91
▁ngh	-92
ch	-93
▁cũng	-94
ao	-95
▁con	-96
ướ	-97
an	-98
▁đã	-99
▁ra	-100
▁ở	-101
ăm	-102
▁nhi	-103
▁làm	-104
▁tôi	-105
▁ti	-106
▁chúng	-107
▁cả	-108
ang	-109
▁thể	-110
▁khi	-111
uố	-112
▁rồi	-113
▁lại	-114
▁phải	-115
ết	-116
au	-117
ước	-118
ến	-119
ườ	-120
âu	-121
ác	-122
ào	-123
▁hai	-124
▁đây	-125
ường	-126
iết	-127
▁vậ	-128
ầu	-129
ương	-130
òn	-131
▁ho	-132
ành	-133
ơn	-134
▁đến	-135
▁họ	-136
inh	-137
▁về	-138
iện	-139
▁rất	-140
▁gì	-141
àng	-142
ức	-143
ài	-144
▁nhưng	-145
ùng	-146
▁vào	-147
▁còn	-148
ăn	-149
ực	-150
▁thế	-151
▁nói	-152
▁từ	-153
▁nhiều	-154
àn	-155
ính	-156
▁vậy	-157
▁độ	-158
ền	-159
ật	-160
▁việ	-161
ằng	-162
ữa	-163
▁thấy	-164
ản	-165
ống	-166
ơi	-167
▁bị	-168
ưa	-169
ôn	-170
▁nào	-171
ận	-172
ối	-173
eo	-174
▁chỉ	-175
iể	-176
êu	-177
▁biết	-178
ung	-179
úc	-180
▁giờ	-181
iến	-182
▁đầu	-183
át	-184
▁năm	-185
ăng	-186
▁nên	-187
ọi	-188
▁nhà	-189
▁sự	-190
▁công	-191
▁vì	-192
▁lu	-193
iên	-194
▁sau	-195
▁cô	-196
ếu	-197
▁ba	-198
▁chuy	-199
ắt	-200
▁sao	-201
▁chị	-202
ồng	-203
▁y	-204
ái	-205
▁hơn	-206
▁trên	-207
▁lên	-208
âm	-209
▁ông	-210
ắc	-211
ẫn	-212
▁việc	-213
ích	-214
am	-215
án	-216
▁tiế	-217
▁ngày	-218
▁đang	-219
ươi	-220
òng	-221
▁thành	-222
áng	-223
ặc	-224
▁nếu	-225
ục	-226
▁điều	-227
▁nữa	-228
▁mới	-229
▁theo	-230
▁thôi	-231
ện	-232
▁ăn	-233
ặt	-234
ộc	-235
ánh	-236
ổi	-237
▁nhất	-238
▁mươi	-239
▁tại	-240
ìn	-241
uốn	-242
▁lo	-243
▁hay	-244
▁nước	-245
▁chính	-246
ập	-247
▁đị	-248
▁luôn	-249
▁cách	-250
▁cùng	-251
in	-252
▁đâu	-253
▁dụ	-254
▁mọi	-255
▁muốn	-256
▁hiện	-257
▁thu	-258
ốc	-259
iệu	-260
▁quan	-261
▁bả	-262
ội	-263
▁cứ	-264
▁chi	-265
ạo	-266
▁khác	-267
▁bên	-268
▁quá	-269
áo	-270
êm	-271
▁nghĩ	-272
▁qua	-273
▁mẹ	-274
▁trước	-275
▁thời	-276
ỏi	-277
▁cảm	-278
▁số	-279
▁chứ	-280
▁nhân	-281
▁phần	-282
▁to	-283
ừng	-284
▁trăm	-285
ượng	-286
▁hết	-287
ạnh	-288
▁tu	-289
▁thứ	-290
iểu	-291
▁cần	-292
▁hàng	-293
ấn	-294
▁nay	-295
▁kho	-296
▁bây	-297
ám	-298
▁chuyện	-299
▁học	-300
ắn	-301
▁động	-302
ốt	-303
▁cơ	-304
▁do	-305
ách	-306
ôm	-307
▁ai	-308
▁chú	-309
▁ngo	-310
iệt	-311
ốn	-312
▁tự	-313
▁lúc	-314
▁vẫn	-315
▁vị	-316
▁tiếp	-317
▁đấy	-318
▁chưa	-319
ắm	-320
áp	-321
▁gia	-322
▁tới	-323
▁quy	-324
▁nhau	-325
ấp	-326
ậu	-327
ỗi	-328
▁lớ	-329
▁thực	-330
▁tâm	-331
▁tư	-332
▁rằng	-333
▁tình	-334
▁nha	-335
▁dụng	-336
ừa	-337
▁định	-338
ấu	-339
uống	-340
▁sống	-341
en	-342
▁nhìn	-343
▁ý	-344
ọng	-345
uộc	-346
áu	-347
ạt	-348
▁mặt	-349
▁thường	-350
▁chí	-351
▁ấy	-352
▁nhận	-353
ắng	-354
▁đúng	-355
▁nguy	-356
▁yêu	-357
▁sinh	-358
▁bà	-359
ửa	-360
▁hôm	-361
▁đường	-362
▁hình	-363
ởng	-364
▁mười	-365
▁tiền	-366
ảng	-367
▁đồng	-368
▁bao	-369
▁đối	-370
▁lần	-371
ãy	-372
▁thật	-373
ua	-374
▁thân	-375
▁trường	-376
ồn	-377
ìm	-378
▁tay	-379
▁xin	-380
ọn	-381
ầm	-382
▁bộ	-383
▁xu	-384
▁lý	-385
▁vô	-386
▁tuy	-387
▁cuộc	-388
▁nam	-389
▁bằng	-390
▁ngoài	-391
ợp	-392
▁bắt	-393
▁gian	-394
óc	-395
▁phát	-396
▁tin	-397
▁nhiên	-398
▁hợp	-399
▁giá	-400
ứng	-401
▁xem	-402
▁tìm	-403
ởi	-404
ệnh	-405
▁vi	-406
ặp	-407
▁nghe	-408
▁tốt	-409
▁hành	-410
▁cao	-411
▁tất	-412
ẳng	-413
▁lớn	-414
▁giới	-415
úp	-416
iệm	-417
ầy	-418
▁trung	-419
▁bản	-420
▁trở	-421
▁dư	-422
ẹp	-423
▁ki	-424
áy	-425
▁sản	-426
▁bình	-427
▁thương	-428
▁bảo	-429
▁dạ	-430
▁hoặc	-431
▁năng	-432
▁toàn	-433
▁xe	-434
▁sử	-435
▁điể	-436
▁thông	-437
▁thích	-438
▁bốn	-439
▁đều	-440
▁giúp	-441
▁hiểu	-442
▁khó	-443
út	-444
▁quốc	-445
▁câu	-446
▁cây	-447
ướng	-448
▁mày	-449
▁loại	-450
▁vừa	-451
▁hãy	-452
▁quả	-453
▁thị	-454
ạch	-455
▁gọi	-456
ẩn	-457
▁hỏi	-458
ẩm	-459
▁điểm	-460
ợi	-461
ịch	-462
▁gặp	-463
▁à	-464
▁lời	-465
▁đời	-466
▁đại	-467
▁đẹp	-468
▁việt	-469
▁dùng	-470
▁lấy	-471
▁trọng	-472
▁chiế	-473
▁giả	-474
▁ạ	-475
▁bỏ	-476
▁tiên	-477
▁đo	-478
▁trình	-479
ấm	-480
▁cậu	-481
▁chủ	-482
uối	-483
▁tạo	-484
▁bởi	-485
▁đất	-486
▁kết	-487
▁bệnh	-488
▁bất	-489
▁tính	-490
óng	-491
▁thức	-492
iệp	-493
▁lượng	-494
▁thêm	-495
iển	-496
▁phí	-497
▁chắc	-498
ển	-499
▁kinh	-500
▁khu	-501
▁nhé	-502
▁lực	-503
▁đề	-504
▁lắm	-505
▁quý	-506
▁mấy	-507
▁nhỏ	-508
ảnh	-509
▁nhớ	-510
▁tổ	-511
▁tho	-512
▁phương	-513
ễn	-514
ạng	-515
▁xuất	-516
▁kỳ	-517
▁dân	-518
▁mua	-519
▁đừng	-520
▁mất	-521
ọc	-522
▁xuống	-523
▁chiến	-524
▁bu	-525
▁nè	-526
▁chu	-527
▁dự	-528
▁chất	-529
ạc	-530
▁tập	-531
▁cầu	-532
▁thủ	-533
▁an	-534
ưởng	-535
▁đánh	-536
▁chín	-537
▁phòng	-538
▁quân	-539
▁bé	-540
▁di	-541
▁ngay	-542
▁trời	-543
▁ơi	-544
▁biệt	-545
▁nơi	-546
ạm	-547
▁đưa	-548
▁màu	-549
▁chân	-550
▁chia	-551
▁liên	-552
▁vật	-553
▁mỗi	-554
▁tiếng	-555
▁máy	-556
▁viên	-557
▁bác	-558
ộng	-559
▁pháp	-560
ắp	-561
▁tăng	-562
▁dễ	-563
iền	-564
▁vụ	-565
▁hả	-566
▁tao	-567
ít	-568
▁co	-569
▁xong	-570
▁tế	-571
▁giải	-572
▁sáu	-573
▁vu	-574
▁dưới	-575
▁dù	-576
▁lòng	-577
▁tiêu	-578
▁giống	-579
▁bán	-580
▁sáng	-581
▁sức	-582
▁hoa	-583
▁gh	-584
ép	-585
▁đặc	-586
ảy	-587
▁tác	-588
▁nguyên	-589
▁mang	-590
▁khoảng	-591
▁tên	-592
▁chơi	-593
▁hoàn	-594
▁hội	-595
▁chiếc	-596
▁hệ	-597
ứa	-598
▁chết	-599
▁nghiệp	-600
▁lư	-601
▁mạnh	-602
▁trị	-603
▁thay	-604
▁minh	-605
▁điện	-606
▁khách	-607
▁từng	-608
ét	-609
▁phẩm	-610
▁chẳng	-611
▁bảy	-612
▁đơn	-613
▁nghìn	-614
▁khiến	-615
▁tháng	-616
ón	-617
▁mắt	-618
▁quay	-619
▁đủ	-620
▁vấn	-621
iếu	-622
▁gần	-623
▁đình	-624
▁đồ	-625
▁ảnh	-626
ãi	-627
óa	-628
▁cuối	-629
ệt	-630
▁quyết	-631
▁đổi	-632
▁chào	-633
▁báo	-634
▁a	-635
▁tám	-636
ằm	-637
▁càng	-638
▁tài	-639
▁vui	-640
▁tục	-641
▁trí	-642
▁cố	-643
▁dẫn	-644
▁cổ	-645
iểm	-646
▁huy	-647
▁thần	-648
▁chuyển	-649
▁gái	-650
▁nhanh	-651
▁chọn	-652
ảo	-653
▁nghĩa	-654
▁cảnh	-655
▁sợ	-656
▁phía	-657
àu	-658
▁so	-659
▁kia	-660
▁thầy	-661
▁chồng	-662
▁trả	-663
▁á	-664
▁lâu	-665
▁bài	-666
▁phật	-667
▁xa	-668
▁mở	-669
▁da	-670
▁cấp	-671
▁phân	-672
▁thiết	-673
ạy	-674
▁sát	-675
▁phụ	-676
▁đạo	-677
▁hóa	-678
▁trái	-679
▁hướng	-680
▁o	-681
▁hiệu	-682
▁tức	-683
▁vợ	-684
ặng	-685
▁chỗ	-686
▁sĩ	-687
▁linh	-688
▁đức	-689
▁dài	-690
▁mỹ	-691
▁rõ	-692
▁chút	-693
▁ít	-694
▁duy	-695
▁chứng	-696
▁đau	-697
ỉnh	-698
ậm	-699
▁biến	-700
▁tuổi	-701
▁sẻ	-702
▁trang	-703
▁tử	-704
▁tượng	-705
▁cực	-706
▁kiế	-707
▁bước	-708
▁bố	-709
▁chịu	-710
▁chung	-711
▁hơi	-712
er	-713
▁thanh	-714
ùa	-715
▁xác	-716
▁chế	-717
▁tương	-718
▁hồi	-719
▁triển	-720
▁tụ	-721
▁khí	-722
▁nội	-723
▁tưởng	-724
▁giữ	-725
▁cửa	-726
▁ơn	-727
▁hoàng	-728
▁phi	-729
▁tích	-730
▁chạy	-731
▁vid	-732
▁gây	-733
▁video	-734
ềm	-735
▁ngồi	-736
▁uống	-737
▁vũ	-738
▁đặt	-739
▁liệu	-740
▁nữ	-741
▁truy	-742
▁ké	-743
▁văn	-744
▁tiến	-745
▁triệu	-746
▁bay	-747
▁địa	-748
▁kế	-749
▁coi	-750
▁món	-751
▁kể	-752
▁ma	-753
êng	-754
▁thằng	-755
▁giữa	-756
▁cứu	-757
▁đứa	-758
▁ví	-759
▁tinh	-760
▁mai	-761
▁mặc	-762
▁lợi	-763
▁sang	-764
▁đứng	-765
▁giảm	-766
▁nằm	-767
▁tối	-768
▁khỏi	-769
▁đôi	-770
▁thống	-771
▁bàn	-772
▁khá	-773
▁ngủ	-774
iêng	-775
▁ừ	-776
▁thái	-777
▁tiết	-778
▁trẻ	-779
▁giao	-780
ếp	-781
▁lập	-782
▁đàn	-783
▁đội	-784
▁hồ	-785
▁kiến	-786
▁chức	-787
▁nổi	-788
▁khả	-789
▁dịch	-790
▁suy	-791
▁đáng	-792
▁tí	-793
▁khổ	-794
▁tham	-795
▁hộ	-796
▁mục	-797
▁chuẩn	-798
▁đông	-799
▁trai	-800
ênh	-801
▁vòng	-802
▁cha	-803
uôi	-804
▁giác	-805
òa	-806
▁mức	-807
▁vệ	-808
▁căn	-809
▁ban	-810
▁nghiệm	-811
▁phúc	-812
óm	-813
▁sai	-814
▁yếu	-815
▁vực	-816
▁lã	-817
▁lỗi	-818
▁doanh	-819
▁sở	-820
▁tranh	-821
▁lá	-822
▁xã	-823
▁mong	-824
▁phục	-825
▁diễn	-826
▁thử	-827
▁thiên	-828
▁ngu	-829
▁ứng	-830
▁hoạt	-831
▁giáo	-832
uốc	-833
ũi	-834
ưng	-835
▁hạnh	-836
▁quyền	-837
úi	-838
▁đêm	-839
▁kiếm	-840
ĩnh	-841
▁lan	-842
▁án	-843
▁lưu	-844
ượt	-845
ựa	-846
▁tàu	-847
▁vùng	-848
▁áp	-849
▁đoạn	-850
▁vài	-851
▁ngon	-852
▁mối	-853
▁thuộc	-854
▁hạn	-855
▁kiểm	-856
▁phá	-857
▁vàng	-858
▁bánh	-859
▁khỏ	-860
▁thi	-861
▁sách	-862
▁đá	-863
▁nhiêu	-864
▁chiều	-865
▁xảy	-866
▁hà	-867
▁thuốc	-868
▁tra	-869
▁phong	-870
▁tỉnh	-871
▁lớp	-872
▁khỏe	-873
▁phố	-874
▁vẻ	-875
▁riêng	-876
▁thuật	-877
ẹn	-878
▁kiểu	-879
▁đầy	-880
▁truyền	-881
▁lẽ	-882
▁âm	-883
▁sâu	-884
uyên	-885
▁ha	-886
▁mũi	-887
ùi	-888
ẫu	-889
▁dòng	-890
▁ty	-891
▁ca	-892
▁kỹ	-893
▁tụi	-894
ọt	-895
▁sư	-896
▁li	-897
▁nghi	-898
▁bóng	-899
▁kéo	-900
▁yên	-901
âng	-902
▁trạng	-903
▁kênh	-904
èo	-905
▁su	-906
ỡng	-907
▁quen	-908
▁chắn	-909
▁cạnh	-910
▁hưởng	-911
▁quanh	-912
▁nhiệm	-913
▁ổ	-914
▁quên	-915
▁thuy	-916
▁vọng	-917
ậy	-918
▁chờ	-919
▁	-920
n	-921
h	-922
c	-923
t	-924
i	-925
g	-926
m	-927
a	-928
à	-929
đ	-930
u	-931
l	-932
o	-933
y	-934
ư	-935
v	-936
á	-937
r	-938
b	-939
k	-940
ó	-941
ô	-942
s	-943
ì	-944
p	-945
ạ	-946
ế	-947
ấ	-948
ờ	-949
ả	-950
ê	-951
ộ	-952
â	-953
d	-954
ớ	-955
ố	-956
ệ	-957
e	-958
ể	-959
ề	-960
ơ	-961
ợ	-962
ủ	-963
ậ	-964
ú	-965
q	-966
ầ	-967
x	-968
ị	-969
ữ	-970
ă	-971
ồ	-972
í	-973
ứ	-974
ọ	-975
ở	-976
ắ	-977
ã	-978
ự	-979
ò	-980
ũ	-981
ẽ	-982
ụ	-983
ừ	-984
ù	-985
ặ	-986
ổ	-987
ỏ	-988
ỉ	-989
é	-990
ử	-991
ằ	-992
ý	-993
ẹ	-994
ĩ	-995
ỗ	-996
ẫ	-997
ẩ	-998
ẻ	-999
ễ	-1000
è	-1001
ẳ	-1002
ỡ	-1003
õ	-1004
ỹ	-1005
ỳ	-1006
ỷ	-1007
f	-1008
w	-1009
z	-1010
ẵ	-1011
j	-1012
ỵ	-1013
0	-1014
1	-1015
2	-1016
3	-1017
5	-1018
◽	-1019
ð	-1020
