<unk>
<s>
</s>
##▁t
##▁c
##ng
##▁đ
##▁n
##▁m
##▁l
##▁th
##▁v
##▁b
##▁ch
##▁h
##nh
##▁k
##▁nh
##▁s
##▁kh
##▁tr
##▁là
##▁g
##▁ng
##▁cá
##ông
##▁r
##▁d
##▁p
##▁ph
##ên
##▁gi
##▁có
##▁và
##ời
##ình
##▁không
##▁q
##▁qu
##ột
##ày
##▁x
##iệ
##▁một
##iế
##ới
##ất
##▁nó
##▁cái
##ủa
##ượ
##▁các
##▁của
##▁thì
##ười
##▁như
##anh
##ại
##▁mà
##▁mình
##ạn
##▁này
##ôi
##▁người
##▁ta
##▁cho
##ược
##▁đi
##ai
##▁được
##ây
##ong
##▁bạn
##uy
##ấy
##em
##▁đó
##ều
##ân
##on
##ay
##ững
##úng
##ần
##▁anh
##▁sẽ
##▁những
##ải
##▁để
##ươ
##▁trong
##▁với
##▁cũ
##ồi
##▁em
##▁ngh
##ch
##▁cũng
##ao
##▁con
##ướ
##an
##▁đã
##▁ra
##▁ở
##ăm
##▁nhi
##▁làm
##▁tôi
##▁ti
##▁chúng
##▁cả
##ang
##▁thể
##▁khi
##uố
##▁rồi
##▁lại
##▁phải
##ết
##au
##ước
##ến
##ườ
##âu
##ác
##ào
##▁hai
##▁đây
##ường
##iết
##▁vậ
##ầu
##ương
##òn
##▁ho
##ành
##ơn
##▁đến
##▁họ
##inh
##▁về
##iện
##▁rất
##▁gì
##àng
##ức
##ài
##▁nhưng
##ùng
##▁vào
##▁còn
##ăn
##ực
##▁thế
##▁nói
##▁từ
##▁nhiều
##àn
##ính
##▁vậy
##▁độ
##ền
##ật
##▁việ
##ằng
##ữa
##▁thấy
##ản
##ống
##ơi
##▁bị
##ưa
##ôn
##▁nào
##ận
##ối
##eo
##▁chỉ
##iể
##êu
##▁biết
##ung
##úc
##▁giờ
##iến
##▁đầu
##át
##▁năm
##ăng
##▁nên
##ọi
##▁nhà
##▁sự
##▁công
##▁vì
##▁lu
##iên
##▁sau
##▁cô
##ếu
##▁ba
##▁chuy
##ắt
##▁sao
##▁chị
##ồng
##▁y
##ái
##▁hơn
##▁trên
##▁lên
##âm
##▁ông
##ắc
##ẫn
##▁việc
##ích
##am
##án
##▁tiế
##▁ngày
##▁đang
##ươi
##òng
##▁thành
##áng
##ặc
##▁nếu
##ục
##▁điều
##▁nữa
##▁mới
##▁theo
##▁thôi
##ện
##▁ăn
##ặt
##ộc
##ánh
##ổi
##▁nhất
##▁mươi
##▁tại
##ìn
##uốn
##▁lo
##▁hay
##▁nước
##▁chính
##ập
##▁đị
##▁luôn
##▁cách
##▁cùng
##in
##▁đâu
##▁dụ
##▁mọi
##▁muốn
##▁hiện
##▁thu
##ốc
##iệu
##▁quan
##▁bả
##ội
##▁cứ
##▁chi
##ạo
##▁khác
##▁bên
##▁quá
##áo
##êm
##▁nghĩ
##▁qua
##▁mẹ
##▁trước
##▁thời
##ỏi
##▁cảm
##▁số
##▁chứ
##▁nhân
##▁phần
##▁to
##ừng
##▁trăm
##ượng
##▁hết
##ạnh
##▁tu
##▁thứ
##iểu
##▁cần
##▁hàng
##ấn
##▁nay
##▁kho
##▁bây
##ám
##▁chuyện
##▁học
##ắn
##▁động
##ốt
##▁cơ
##▁do
##ách
##ôm
##▁ai
##▁chú
##▁ngo
##iệt
##ốn
##▁tự
##▁lúc
##▁vẫn
##▁vị
##▁tiếp
##▁đấy
##▁chưa
##ắm
##áp
##▁gia
##▁tới
##▁quy
##▁nhau
##ấp
##ậu
##ỗi
##▁lớ
##▁thực
##▁tâm
##▁tư
##▁rằng
##▁tình
##▁nha
##▁dụng
##ừa
##▁định
##ấu
##uống
##▁sống
##en
##▁nhìn
##▁ý
##ọng
##uộc
##áu
##ạt
##▁mặt
##▁thường
##▁chí
##▁ấy
##▁nhận
##ắng
##▁đúng
##▁nguy
##▁yêu
##▁sinh
##▁bà
##ửa
##▁hôm
##▁đường
##▁hình
##ởng
##▁mười
##▁tiền
##ảng
##▁đồng
##▁bao
##▁đối
##▁lần
##ãy
##▁thật
##ua
##▁thân
##▁trường
##ồn
##ìm
##▁tay
##▁xin
##ọn
##ầm
##▁bộ
##▁xu
##▁lý
##▁vô
##▁tuy
##▁cuộc
##▁nam
##▁bằng
##▁ngoài
##ợp
##▁bắt
##▁gian
##óc
##▁phát
##▁tin
##▁nhiên
##▁hợp
##▁giá
##ứng
##▁xem
##▁tìm
##ởi
##ệnh
##▁vi
##ặp
##▁nghe
##▁tốt
##▁hành
##▁cao
##▁tất
##ẳng
##▁lớn
##▁giới
##úp
##iệm
##ầy
##▁trung
##▁bản
##▁trở
##▁dư
##ẹp
##▁ki
##áy
##▁sản
##▁bình
##▁thương
##▁bảo
##▁dạ
##▁hoặc
##▁năng
##▁toàn
##▁xe
##▁sử
##▁điể
##▁thông
##▁thích
##▁bốn
##▁đều
##▁giúp
##▁hiểu
##▁khó
##út
##▁quốc
##▁câu
##▁cây
##ướng
##▁mày
##▁loại
##▁vừa
##▁hãy
##▁quả
##▁thị
##ạch
##▁gọi
##ẩn
##▁hỏi
##ẩm
##▁điểm
##ợi
##ịch
##▁gặp
##▁à
##▁lời
##▁đời
##▁đại
##▁đẹp
##▁việt
##▁dùng
##▁lấy
##▁trọng
##▁chiế
##▁giả
##▁ạ
##▁bỏ
##▁tiên
##▁đo
##▁trình
##ấm
##▁cậu
##▁chủ
##uối
##▁tạo
##▁bởi
##▁đất
##▁kết
##▁bệnh
##▁bất
##▁tính
##óng
##▁thức
##iệp
##▁lượng
##▁thêm
##iển
##▁phí
##▁chắc
##ển
##▁kinh
##▁khu
##▁nhé
##▁lực
##▁đề
##▁lắm
##▁quý
##▁mấy
##▁nhỏ
##ảnh
##▁nhớ
##▁tổ
##▁tho
##▁phương
##ễn
##ạng
##▁xuất
##▁kỳ
##▁dân
##▁mua
##▁đừng
##▁mất
##ọc
##▁xuống
##▁chiến
##▁bu
##▁nè
##▁chu
##▁dự
##▁chất
##ạc
##▁tập
##▁cầu
##▁thủ
##▁an
##ưởng
##▁đánh
##▁chín
##▁phòng
##▁quân
##▁bé
##▁di
##▁ngay
##▁trời
##▁ơi
##▁biệt
##▁nơi
##ạm
##▁đưa
##▁màu
##▁chân
##▁chia
##▁liên
##▁vật
##▁mỗi
##▁tiếng
##▁máy
##▁viên
##▁bác
##ộng
##▁pháp
##ắp
##▁tăng
##▁dễ
##iền
##▁vụ
##▁hả
##▁tao
##ít
##▁co
##▁xong
##▁tế
##▁giải
##▁sáu
##▁vu
##▁dưới
##▁dù
##▁lòng
##▁tiêu
##▁giống
##▁bán
##▁sáng
##▁sức
##▁hoa
##▁gh
##ép
##▁đặc
##ảy
##▁tác
##▁nguyên
##▁mang
##▁khoảng
##▁tên
##▁chơi
##▁hoàn
##▁hội
##▁chiếc
##▁hệ
##ứa
##▁chết
##▁nghiệp
##▁lư
##▁mạnh
##▁trị
##▁thay
##▁minh
##▁điện
##▁khách
##▁từng
##ét
##▁phẩm
##▁chẳng
##▁bảy
##▁đơn
##▁nghìn
##▁khiến
##▁tháng
##ón
##▁mắt
##▁quay
##▁đủ
##▁vấn
##iếu
##▁gần
##▁đình
##▁đồ
##▁ảnh
##ãi
##óa
##▁cuối
##ệt
##▁quyết
##▁đổi
##▁chào
##▁báo
##▁a
##▁tám
##ằm
##▁càng
##▁tài
##▁vui
##▁tục
##▁trí
##▁cố
##▁dẫn
##▁cổ
##iểm
##▁huy
##▁thần
##▁chuyển
##▁gái
##▁nhanh
##▁chọn
##ảo
##▁nghĩa
##▁cảnh
##▁sợ
##▁phía
##àu
##▁so
##▁kia
##▁thầy
##▁chồng
##▁trả
##▁á
##▁lâu
##▁bài
##▁phật
##▁xa
##▁mở
##▁da
##▁cấp
##▁phân
##▁thiết
##ạy
##▁sát
##▁phụ
##▁đạo
##▁hóa
##▁trái
##▁hướng
##▁o
##▁hiệu
##▁tức
##▁vợ
##ặng
##▁chỗ
##▁sĩ
##▁linh
##▁đức
##▁dài
##▁mỹ
##▁rõ
##▁chút
##▁ít
##▁duy
##▁chứng
##▁đau
##ỉnh
##ậm
##▁biến
##▁tuổi
##▁sẻ
##▁trang
##▁tử
##▁tượng
##▁cực
##▁kiế
##▁bước
##▁bố
##▁chịu
##▁chung
##▁hơi
##er
##▁thanh
##ùa
##▁xác
##▁chế
##▁tương
##▁hồi
##▁triển
##▁tụ
##▁khí
##▁nội
##▁tưởng
##▁giữ
##▁cửa
##▁ơn
##▁hoàng
##▁phi
##▁tích
##▁chạy
##▁vid
##▁gây
##▁video
##ềm
##▁ngồi
##▁uống
##▁vũ
##▁đặt
##▁liệu
##▁nữ
##▁truy
##▁ké
##▁văn
##▁tiến
##▁triệu
##▁bay
##▁địa
##▁kế
##▁coi
##▁món
##▁kể
##▁ma
##êng
##▁thằng
##▁giữa
##▁cứu
##▁đứa
##▁ví
##▁tinh
##▁mai
##▁mặc
##▁lợi
##▁sang
##▁đứng
##▁giảm
##▁nằm
##▁tối
##▁khỏi
##▁đôi
##▁thống
##▁bàn
##▁khá
##▁ngủ
##iêng
##▁ừ
##▁thái
##▁tiết
##▁trẻ
##▁giao
##ếp
##▁lập
##▁đàn
##▁đội
##▁hồ
##▁kiến
##▁chức
##▁nổi
##▁khả
##▁dịch
##▁suy
##▁đáng
##▁tí
##▁khổ
##▁tham
##▁hộ
##▁mục
##▁chuẩn
##▁đông
##▁trai
##ênh
##▁vòng
##▁cha
##uôi
##▁giác
##òa
##▁mức
##▁vệ
##▁căn
##▁ban
##▁nghiệm
##▁phúc
##óm
##▁sai
##▁yếu
##▁vực
##▁lã
##▁lỗi
##▁doanh
##▁sở
##▁tranh
##▁lá
##▁xã
##▁mong
##▁phục
##▁diễn
##▁thử
##▁thiên
##▁ngu
##▁ứng
##▁hoạt
##▁giáo
##uốc
##ũi
##ưng
##▁hạnh
##▁quyền
##úi
##▁đêm
##▁kiếm
##ĩnh
##▁lan
##▁án
##▁lưu
##ượt
##ựa
##▁tàu
##▁vùng
##▁áp
##▁đoạn
##▁vài
##▁ngon
##▁mối
##▁thuộc
##▁hạn
##▁kiểm
##▁phá
##▁vàng
##▁bánh
##▁khỏ
##▁thi
##▁sách
##▁đá
##▁nhiêu
##▁chiều
##▁xảy
##▁hà
##▁thuốc
##▁tra
##▁phong
##▁tỉnh
##▁lớp
##▁khỏe
##▁phố
##▁vẻ
##▁riêng
##▁thuật
##ẹn
##▁kiểu
##▁đầy
##▁truyền
##▁lẽ
##▁âm
##▁sâu
##uyên
##▁ha
##▁mũi
##ùi
##ẫu
##▁dòng
##▁ty
##▁ca
##▁kỹ
##▁tụi
##ọt
##▁sư
##▁li
##▁nghi
##▁bóng
##▁kéo
##▁yên
##âng
##▁trạng
##▁kênh
##èo
##▁su
##ỡng
##▁quen
##▁chắn
##▁cạnh
##▁hưởng
##▁quanh
##▁nhiệm
##▁ổ
##▁quên
##▁thuy
##▁vọng
##ậy
##▁chờ
##▁
##n
##h
##c
##t
##i
##g
##m
##a
##à
##đ
##u
##l
##o
##y
##ư
##v
##á
##r
##b
##k
##ó
##ô
##s
##ì
##p
##ạ
##ế
##ấ
##ờ
##ả
##ê
##ộ
##â
##d
##ớ
##ố
##ệ
##e
##ể
##ề
##ơ
##ợ
##ủ
##ậ
##ú
##q
##ầ
##x
##ị
##ữ
##ă
##ồ
##í
##ứ
##ọ
##ở
##ắ
##ã
##ự
##ò
##ũ
##ẽ
##ụ
##ừ
##ù
##ặ
##ổ
##ỏ
##ỉ
##é
##ử
##ằ
##ý
##ẹ
##ĩ
##ỗ
##ẫ
##ẩ
##ẻ
##ễ
##è
##ẳ
##ỡ
##õ
##ỹ
##ỳ
##ỷ
##f
##w
##z
##ẵ
##j
##ỵ
##0
##1
##2
##3
##5
##◽
##ð
