<unk>
<s>
</s>
▁t
ng
▁c
▁đ
nh
▁v
▁th
▁l
▁h
▁m
▁b
▁ch
▁n
▁tr
▁k
▁nh
▁s
▁ng
▁g
▁kh
▁p
▁d
▁ph
▁là
ông
▁cá
iệ
▁q
▁qu
▁gi
▁và
ên
▁r
ườ
▁có
▁x
ới
▁củ
▁của
iế
ột
ình
▁các
▁một
ại
ười
ượ
ai
ất
ân
ươ
uy
ong
▁không
ày
ăm
iề
ược
▁ngh
ch
▁được
an
anh
▁trong
ây
▁người
▁cho
▁như
ôi
ững
▁với
▁những
ay
iên
ướ
▁thì
ần
inh
▁việ
iều
iể
ương
▁hai
▁cái
▁đã
▁mà
em
ải
▁này
ao
ạn
▁nó
ành
▁đó
ước
ang
ường
▁để
▁họ
am
▁chí
ến
iện
ũng
▁ho
▁em
úng
ời
ực
▁năm
▁cũng
ung
▁ở
ấy
ức
àn
▁độ
ết
ác
ầu
ống
▁công
▁về
ốc
▁đến
▁tôi
▁sẽ
▁ra
▁bạn
▁cả
ơn
ài
▁tiế
▁từ
au
in
ối
ận
âu
▁bả
ùng
ồng
ật
át
▁làm
▁mình
▁thể
áng
àng
▁khi
▁chúng
▁anh
ươi
▁nhiều
on
ào
▁mươi
▁đi
ội
▁lại
ồi
ốn
▁phải
▁ta
▁quy
ăn
▁tại
eo
▁việt
▁ba
▁nam
án
ăng
ằng
ưa
▁trăm
▁vào
▁thu
▁mười
▁ông
▁quốc
ền
▁nhà
▁đây
iết
▁đị
▁số
▁sự
▁thành
êu
úc
▁rất
▁con
ục
▁ngày
▁việc
ộc
▁bị
ập
▁thế
iến
▁nói
▁trên
▁học
òn
▁nước
▁chính
▁đầu
áo
▁dân
ản
▁trung
▁nhân
▁nhưng
ôn
▁động
▁theo
ích
▁hiện
ơi
▁còn
ắc
▁chỉ
▁cu
▁sau
ái
ấn
▁đồng
ữa
iểm
▁hơn
▁quan
iệu
▁rồi
ổi
▁sá
▁do
▁gia
▁lu
▁trường
▁y
▁đề
ám
▁giờ
iển
▁sinh
▁chuy
▁xu
ạt
▁đang
▁bộ
áp
ẫn
▁trình
▁vì
▁vị
▁hội
▁mới
ượng
ạo
▁tổ
òng
▁tháng
▁nay
ìn
▁biết
▁thời
▁nào
ấp
âm
▁điều
▁thông
▁nguy
▁mu
ặc
▁nhất
ắt
▁thực
▁thấy
▁phần
▁cùng
iền
▁tư
▁cơ
▁phát
ậy
ịch
iệp
▁định
ễn
▁tin
▁qua
ặt
▁gì
oàn
▁dự
ện
▁hàng
▁ngo
ánh
▁hình
iểu
▁tu
▁tuy
▁lo
▁viên
ởng
▁tới
ứng
▁trước
ốt
ảng
▁chủ
▁cuộc
ọi
▁lên
▁hợ
ếu
▁rằng
▁tiếp
▁di
ỏi
▁hợp
ọng
▁điểm
▁nên
▁dụ
▁tự
▁cao
êm
▁kho
▁vậy
▁đối
▁bốn
▁sản
▁vi
▁lý
▁ti
iệt
▁sáu
▁a
ừa
ỉnh
▁khác
▁lớ
▁đại
▁hay
ách
ôm
▁tế
▁cách
▁hành
▁nhận
▁chín
▁tình
▁mỹ
▁ý
▁nghĩ
▁mạ
▁chức
ét
▁tám
▁chị
▁quyền
▁nghiệp
▁vụ
▁an
▁chi
iệm
▁kinh
ính
▁bảo
▁quý
ưởng
▁cứ
en
▁tác
▁dụng
▁tỉnh
▁thứ
▁câu
▁nghìn
▁thị
▁quân
▁bảy
▁cô
▁vẫn
ấu
▁chương
▁hôm
ừng
▁xuất
▁ô
▁phương
▁kỳ
▁giá
▁thủ
▁sao
▁khu
▁lúc
▁thi
▁nếu
▁muốn
▁chưa
ướng
▁giới
▁xin
▁kết
▁hoa
▁nữa
▁triển
▁huy
▁bản
▁lượng
▁cảm
▁toàn
ồn
▁đường
▁bình
▁sử
▁giả
▁thường
▁lực
ởi
▁báo
▁tâm
▁bằng
ệnh
óa
▁phẩ
▁nhau
▁hỏi
▁mặt
▁lớn
ỗi
út
▁pháp
▁tập
▁địa
▁quá
▁cần
▁tiên
▁trọng
ộng
▁nhiên
▁án
▁thống
▁xã
▁văn
▁giải
▁ban
▁truy
▁liên
ắn
▁à
▁tiền
▁gian
▁tăng
ạm
▁hu
▁năng
▁bà
▁yêu
▁cấp
▁chiến
▁ăn
ắng
▁sống
▁bắt
▁phòng
ảnh
▁giáo
▁tiếng
▁lần
▁ạ
▁thương
ọn
ảo
▁mẹ
▁bên
▁nội
▁ngoài
▁tạo
▁bây
▁quyết
▁bu
▁lời
▁thôi
▁á
▁trị
▁đúng
▁sĩ
▁phí
▁ủ
▁hết
▁tổng
áy
▁dạ
▁vấn
ặp
▁minh
óng
▁hóa
▁luôn
▁đình
▁ki
▁phố
▁đông
▁thức
▁thanh
▁trở
▁đất
ạch
▁tham
ắm
▁ai
▁phi
▁đưa
▁truyền
▁ảnh
▁cầu
▁chu
ìm
ưu
▁hoạt
▁tính
úp
▁vừa
▁khó
▁xe
▁bao
▁lợ
▁quả
▁tiêu
▁diễn
▁bệnh
ầm
▁giao
▁vực
▁gọi
▁tìm
▁hệ
▁hà
òa
▁nông
▁tốt
▁sáng
ẩn
▁tất
▁biển
▁sở
▁chuyện
ển
ạc
▁tục
▁lã
▁đặc
▁chất
▁ngàn
ít
▁đấy
▁doanh
ẳng
▁hiệu
▁đô
▁tài
▁thích
ậu
ọc
▁đều
▁biệt
▁cảnh
▁phẩm
▁mọi
▁hã
▁vu
▁ờ
▁nơi
▁tiến
▁triệu
ép
▁ca
▁gần
▁nguyên
ấm
▁gặp
▁đạo
▁xem
▁thêm
▁giúp
▁đánh
▁thân
▁dư
▁cử
▁khách
▁chiế
▁mạnh
▁du
▁đổi
▁vật
▁đâu
▁mỗi
▁tích
▁điện
▁chế
▁ấy
âng
▁hoặc
▁kiến
▁trang
▁mang
▁luật
▁nguyễn
▁nghệ
▁tranh
▁hộ
▁bố
▁trả
▁tay
▁bởi
ằm
▁loại
▁so
▁khai
▁sách
ầy
▁nghị
▁giống
▁huế
▁tho
▁bắc
▁bất
▁xây
▁lịch
▁dịch
▁trẻ
óc
▁biểu
▁bán
▁lập
▁giữa
ạnh
▁đo
ẹp
àu
▁bỏ
▁bài
▁hồ
▁nhỏ
▁trưởng
▁ủy
▁máy
▁lăm
▁nhìn
▁đoàn
▁tra
▁dựng
▁ngay
▁chung
▁thái
▁ứng
▁khoảng
ắp
▁sát
▁vệ
ặng
▁đơn
▁mời
▁chọn
▁hoàn
▁cây
▁thật
▁cứu
▁chơi
▁dùng
▁chia
▁đội
ạng
▁u
▁tử
▁ri
▁ma
▁cộng
▁phạm
▁co
▁ngoại
▁tuổi
▁vùng
▁hướng
iếu
▁phong
▁la
▁hãy
▁nhiệm
▁gh
▁lợi
▁cuối
▁thiết
▁chứ
▁ngu
▁nghĩa
▁thiên
▁châu
▁phủ
▁thay
▁hòa
ảy
▁sức
▁nhật
▁hoàng
▁tên
▁nu
▁chú
▁dẫn
▁hiểu
▁giữ
▁từng
▁tuần
▁chào
▁tàu
▁mua
▁đẹp
▁kế
▁nghe
▁biến
▁gây
▁lấy
▁chuyển
▁hồi
▁ngành
ĩnh
▁phụ
▁nguồn
▁vô
▁trợ
▁thuộc
▁trí
▁kiểm
▁phía
▁bàn
▁diện
▁lưu
▁nhi
▁si
▁huyện
▁tượng
▁cố
ùa
▁đời
▁to
▁xử
▁nuôi
▁cáo
▁lãnh
▁hải
▁vui
▁chuyên
▁su
▁nhập
▁ty
▁dù
▁tức
▁phục
▁mất
▁bác
▁viện
▁thuật
▁i
▁nữ
▁li
▁cư
▁tỷ
▁giảm
áu
▁duy
▁mục
▁thư
▁đặt
▁tinh
▁đài
▁sư
▁đạt
óm
▁mức
▁chồng
▁kiện
▁tiết
▁dài
▁ít
▁o
▁chắc
▁gà
▁càng
▁chuẩn
▁khí
êng
▁áp
▁tương
ệt
▁mạng
▁nghi
õi
▁chết
▁cổ
▁quản
▁vũ
▁liệu
▁xuống
▁thừa
▁chống
▁nhớ
▁dương
ảm
▁rõ
▁đảng
▁dành
èo
▁mở
▁lắm
▁gó
▁xác
▁ây
▁khá
▁mô
▁khiến
ãi
ưng
▁luận
▁ký
▁dõi
▁phân
▁hoạch
▁kể
▁tây
▁tuyên
▁hậu
▁sang
▁dễ
▁tấn
▁đa
▁lòng
▁đáng
▁nổi
▁yếu
▁dung
▁nhanh
▁triều
▁hương
▁nghiệm
▁hưởng
▁tướng
▁chiếc
▁bay
▁vọng
▁vợ
▁trời
▁nhóm
ữu
▁đủ
▁mấy
▁sơn
▁trái
▁vận
▁hạn
▁thần
ịp
▁chứng
▁tưởng
▁kỹ
▁hữu
▁xa
▁môi
▁đấu
▁dưới
▁khoa
▁ơi
▁đức
▁màu
▁trạng
ón
▁thí
▁thuận
▁lâu
▁ơn
ứa
▁bé
▁thủy
▁đóng
▁đứng
▁trách
▁linh
▁khán
▁danh
▁lớp
▁chấp
▁kê
▁lễ
▁hát
▁mong
▁cụ
▁đồ
▁mắt
▁bước
▁ninh
ậm
ẩy
▁sa
▁gái
▁nạn
▁tối
▁phản
▁trực
ạy
▁đôi
▁tịch
ựa
▁miền
▁cửa
▁khả
▁sai
▁coi
▁đảm
▁ké
▁ni
▁chân
▁hỗ
▁dục
▁độc
▁vê
▁đảo
▁phóng
▁khởi
▁xong
iếm
▁lao
▁xảy
▁trồng
ượt
▁cung
▁khăn
ửi
▁chiều
▁ngọc
ẩu
▁cạnh
▁góp
▁sắc
▁đào
ỡng
▁na
▁cực
▁phẩy
▁lai
▁đoạn
▁thưa
▁đàn
▁mặc
▁phó
▁lê
▁mi
▁tố
▁sẻ
▁thảo
▁lô
▁tí
▁buổi
▁chữ
▁trai
▁thiếu
▁rộng
▁tù
▁thiện
ẫu
iềm
▁đu
uyên
▁vâng
▁nằm
▁nhằm
▁hơi
▁mừng
▁quay
▁trò
▁hy
▁gồ
ửa
▁nghề
▁viết
▁đà
▁nhạc
▁phim
▁nghiên
úi
▁lan
▁cam
▁vòng
▁gửi
▁xét
▁mai
▁riêng
▁phá
▁chạy
▁xi
▁phổ
▁ngân
▁kỷ
▁hồng
▁hông
▁đăng
ếp
▁hạ
▁khẩu
▁đáp
▁nâng
▁bi
▁biên
▁sông
▁thầy
▁mùa
▁phú
▁chúc
▁ghi
▁thử
▁tôn
▁giám
▁lệ
▁món
▁cháu
▁chấm
▁cường
▁quảng
▁vương
▁chịu
▁trần
▁long
▁vàng
▁đừng
▁lĩnh
▁bờ
▁âm
▁kêu
▁thú
▁vài
ỏa
▁phép
▁thôn
▁đầy
▁phúc
▁thăm
ợi
▁chẳng
▁thoại
▁chỗ
▁gồm
▁lợn
▁sâu
▁kính
ớt
▁vẻ
▁trận
▁đón
ẩm
▁đẩy
▁kim
▁vốn
▁xuân
ổng
▁hiệp
▁thúc
▁hại
èn
▁mốt
▁ấn
▁bí
▁môn
▁quen
▁lương
▁tòa
▁xanh
▁sơ
▁nhu
▁thơ
▁cải
▁xúc
▁ích
▁âu
▁dầu
▁chút
ẹn
▁mưa
▁sân
ạp
▁ngôi
▁nhờ
▁vai
▁rừng
▁thượng
▁nga
▁đêm
▁binh
▁thuốc
▁cờ
▁trao
▁in
▁mét
▁lựa
▁cán
▁suy
▁tội
▁tết
▁khỏi
ớm
▁nha
▁lí
▁quang
ặn
▁nền
▁dạy
▁hiểm
▁yên
▁chờ
▁quê
▁thuy
▁thắng
▁dậy
òi
ỏe
▁tô
▁mẫu
▁khỏe
▁pi
▁sợ
▁ước
▁tụ
▁tê
▁căn
▁hạt
▁kéo
▁niên
▁kia
▁lạc
▁sớm
▁niệm
▁go
▁ánh
▁uống
▁mã
▁kiếm
▁ngồi
▁ví
▁chuyến
▁trương
▁nặng
▁may
▁thẳng
▁cha
▁tín
▁chăm
ót
▁hầu
▁tuyển
er
▁ngại
▁phù
▁buộc
▁thiệu
▁gốc
▁mối
▁sắp
▁vượt
▁ổ
▁mại
▁lộ
▁làng
▁xuyên
▁bày
▁luy
▁dòng
▁tiểu
▁nhiêu
▁đau
ọt
▁mê
▁tộc
▁nóng
▁đá
▁thưởng
▁bức
▁lâm
▁rơi
▁chắn
▁tai
▁phút
▁phối
▁bánh
▁soát
▁nghèo
ẵn
▁hẹn
▁vân
▁giang
▁luyện
▁nghiêm
▁tầm
▁đế
▁sữa
▁đứa
▁lẽ
▁ủng
▁e
▁ép
▁cập
▁dấu
▁hút
▁thịt
▁tuyến
▁lệnh
▁nghỉ
▁tỏ
ầng
▁hàn
▁sẵn
▁tải
▁toán
ứt
▁hả
▁cầm
▁trì
▁kiểu
ùi
▁họp
▁bóng
▁khuy
▁ơ
▁bổ
▁giết
▁ru
▁giấy
▁líp
▁bang
▁ga
▁suất
▁đích
▁áo
▁tặng
▁kích
▁song
▁giác
▁da
▁núi
▁tiện
ão
▁quán
▁dịp
▁tránh
ễm
▁cục
▁niềm
▁lá
▁nối
▁tạm
▁cháy
▁ổn
▁trà
▁đọc
▁hùng
▁mùng
▁chiếm
▁thiệt
▁bê
▁quanh
▁kí
▁thất
▁mơ
▁bầu
▁mày
▁tuyệt
▁thấp
ỏng
▁hạnh
▁nhiệt
▁thụ
▁tái
▁tường
úa
▁tân
▁tốc
▁kênh
▁sứ
▁mắc
▁trắng
▁đỏ
▁rút
▁xếp
▁lẻ
▁xê
▁ét
▁tắc
▁giai
▁loài
▁sóng
▁thác
▁biện
▁chữa
▁lắng
▁nỗ
▁chợ
▁lư
▁sờ
▁ngư
▁ngủ
▁chục
▁ngăn
ãn
▁gắng
▁khám
▁khắc
▁ngữ
▁phê
▁cánh
▁cười
▁đốc
▁pin
▁tơ
▁tú
▁sạch
▁tim
▁ro
▁rô
▁cận
▁vua
▁đòi
▁phan
▁trải
▁ương
▁dưỡng
▁sóc
▁đợi
▁loan
▁nhiễm
▁tờ
▁võ
▁quần
▁mật
▁quà
▁bữa
▁lỗi
▁khối
▁vinh
▁vững
▁tri
▁dạng
▁cà
▁nhé
▁đê
▁nét
▁xấu
▁đen
▁buồn
▁giây
▁nhắc
▁siêu
▁thậm
▁trào
ủng
▁tầng
▁khẳng
▁quên
▁nguyện
▁mái
▁trưa
▁tả
▁khắp
▁phiên
▁đổ
▁gắn
▁nè
▁sàng
▁cậu
▁thuế
▁chỉnh
▁ha
▁tao
▁đem
▁ngôn
▁dần
▁gió
▁máu
▁lạ
▁trụ
▁xưa
▁khủng
ộn
ừn
▁gam
al
▁tồn
▁khúc
▁trại
▁giành
▁can
▁nắng
▁phạt
▁bè
▁lục
▁dũng
▁ràng
▁hằng
▁khảo
▁cát
▁sửa
▁cự
▁cắt
▁kịp
▁chăn
▁ưu
▁cân
▁cặp
▁hi
▁bọn
▁lông
▁suốt
▁đỡ
▁lửa
▁nhá
▁xung
éc
▁lái
▁tận
▁giản
▁cưới
ọa
▁thao
▁thải
▁mèo
▁thận
▁tuấn
ụp
ẵng
▁ly
▁nhẹ
▁huấn
▁tông
▁en
▁khổ
▁ngờ
▁thoát
ườn
▁thỏa
▁liệt
▁giỏi
▁nhấn
▁đỉnh
▁cũ
▁căng
▁ừ
▁gu
▁trừ
▁nẵng
▁thách
▁thổ
▁khuyến
▁tơn
▁chặt
▁tĩnh
▁hào
▁trú
▁trích
▁họa
▁ngang
▁bật
▁xo
▁hôn
▁lộc
▁mắn
▁ngũ
▁nắm
▁nỗi
▁chùa
▁dàng
▁chóng
▁khoản
▁ngược
ỳnh
▁com
▁mãi
▁liền
▁chặn
ãy
▁sài
▁điền
▁bãi
▁đe
▁bào
▁bão
▁cấm
▁cựu
▁phán
▁trưng
▁thù
▁đoán
▁bo
▁tui
▁đột
▁hiền
▁hoài
▁thuyết
▁trông
es
deo
▁mẽ
▁gòn
▁tùy
▁chiếu
▁video
▁nêu
▁hãng
▁khóa
▁miễn
▁khánh
▁nô
▁lẫn
▁chụp
▁phật
▁trấn
▁dị
▁dọa
▁mát
▁vẽ
▁hấp
▁nấu
▁ngắn
▁thuyền
▁dâu
▁bạch
▁khóc
ro
▁đạn
▁dừng
▁kiên
▁đương
▁hưng
▁lược
▁kẻ
▁tỉ
▁dựa
▁hạng
▁phận
▁thẩm
▁bại
▁chó
▁hài
▁lúa
▁thờ
▁quận
▁thai
▁vườn
ợt
▁hủ
▁lũ
▁pa
▁bớt
▁huyết
▁ngoái
éo
▁kém
▁mạc
▁ngô
▁hứa
▁mưu
▁sung
▁kì
▁bắn
▁rác
▁tạp
▁nhắn
▁giảng
▁w
▁bền
▁dữ
▁cấu
▁dây
▁dứt
▁băng
▁nổ
▁búc
▁màn
▁thập
▁nợ
▁cơn
▁lây
▁nho
▁thuê
▁trúc
▁hộp
▁thọ
ụng
▁túy
▁chứa
▁vời
▁trùng
▁pu
▁phu
▁hiến
▁chàng
▁bạo
▁héc
▁hủy
▁rau
▁tụi
▁tươi
▁phiếu
ỡi
▁chở
▁loạn
▁phây
▁tiếc
▁bá
▁va
▁đợt
▁loạt
▁nàng
▁phấn
▁quỹ
▁vong
▁nộ
▁đỗ
▁ấm
▁đàm
▁xinh
▁vay
▁trống
or
▁cám
▁già
▁giam
▁trục
ũi
▁is
▁uy
▁tôm
ac
▁f
▁rời
▁tần
▁lạnh
▁thằng
▁bạc
▁dám
▁nửa
▁ung
▁chậm
▁giàu
▁ngon
ượu
▁tan
▁rượu
▁trứng
▁cuốn
▁súng
▁vĩnh
▁đuổi
▁z
▁bò
▁gấp
▁kháng
▁bó
▁đèn
▁khấu
▁gờ
▁đua
▁lành
▁j
▁tấm
▁lưới
▁huynh
et
iếp
▁bối
▁hán
▁buôn
▁phái
▁sen
▁đền
▁ngọt
ếch
▁xứ
▁cơm
▁canh
ẳn
ụt
▁my
▁tệ
▁chả
▁hồn
▁lối
▁ống
▁gương
▁huyền
▁ngừng
ềm
▁lãi
▁non
▁bảng
▁ngập
íu
▁ân
▁gạo
▁đám
▁hổng
▁bơ
▁nê
▁goa
▁hẳn
▁khô
▁viễn
▁cãi
▁khích
▁thoải
èm
ói
▁hề
▁tị
▁tóc
▁chai
ậc
▁hè
▁bậc
▁cai
▁kịch
▁đẳng
li
▁gỗ
▁mộ
▁tật
▁xâm
▁lính
▁vang
ướp
▁nộp
▁tán
▁giận
▁trăng
ra
▁góc
▁mệt
▁đam
▁xương
ấc
▁ôi
▁gói
▁giáp
▁tiềm
▁điệp
▁hoang
▁đáo
▁lượt
▁tùng
▁dường
▁ẩn
▁tia
▁cảng
▁hiếm
▁nhảy
▁thổi
▁trạm
▁duyên
▁giọng
el
▁mạch
▁bù
▁dô
▁mến
▁niu
▁túc
▁đai
▁dáng
▁nhắm
▁quái
ri
▁bồ
▁pê
▁đẻ
▁khen
▁tuân
▁thiểu
▁trịnh
▁phường
▁rối
▁hứng
▁bồi
▁sốt
▁đập
▁chảy
▁cướp
▁thang
én
▁gỡ
▁chúa
▁dinh
▁phức
▁trôi
▁trốn
▁rủ
▁pha
▁tam
▁tỏa
▁trật
▁quỳnh
▁thước
▁gơ
▁thả
▁đồn
▁lặng
▁thăng
▁ê
▁lỗ
ụy
alo
▁lãng
▁lưng
▁zalo
▁duyệt
oi
▁rẻ
▁sỹ
▁bến
▁mùi
▁mềm
▁đan
▁chối
▁lang
▁khuôn
▁thánh
▁vé
iệng
▁lát
▁xíu
▁hiếu
▁lăng
▁nhãn
▁phỏng
▁bèn
▁man
▁răng
▁địch
▁nhũng
▁bề
▁ốc
▁bát
▁dao
▁túi
▁khẩn
▁trầm
▁vỏ
▁lin
▁rét
▁túp
▁đinh
iếng
▁sắt
▁tổn
▁cứng
▁diệt
▁miệng
▁cản
▁mây
▁não
▁đậu
▁chấn
▁thiệp
▁hư
▁me
▁po
▁ái
▁diu
▁nhở
▁tống
▁cương
▁ne
▁oa
▁che
▁lân
▁lọc
▁kiều
▁pháo
▁thảm
▁hoảng
▁thua
▁tháo
▁tàng
▁khiển
▁khung
▁hô
▁trữ
▁chim
▁hổ
▁vỡ
▁ôn
▁bom
▁lãm
▁nãy
▁pho
▁ran
▁đắc
▁tháp
▁thơm
▁huống
▁bô
▁dọn
▁hỏa
▁thẻ
▁tốn
▁đốt
▁khơi
▁khuyên
▁mờ
▁ẩm
▁dày
▁heo
▁leo
▁tàn
▁đói
▁iu
▁bia
▁dâng
▁cỏ
▁đạp
▁hoan
▁tràn
▁viêm
ll
ow
ùm
▁be
▁nụ
▁ghế
▁lào
▁rào
▁giấc
▁giật
▁ngừa
▁điển
▁xá
▁ủa
▁cẩn
▁lim
▁lắp
▁say
▁ven
▁
n
h
t
i
c
g
a
m
u
đ
à
o
v
l
ư
r
á
y
b
p
k
ô
s
ó
ế
ạ
ộ
ờ
ì
ê
ả
ệ
d
â
ố
ớ
ấ
ơ
ề
q
ủ
ể
ă
ợ
ị
e
ậ
í
x
ầ
ú
ự
ữ
ọ
ứ
ở
ã
ồ
ắ
ụ
ừ
ò
ổ
ù
ũ
ặ
ẽ
ý
ỉ
ỏ
ử
ằ
é
ĩ
ễ
ẩ
ẫ
ỗ
ẹ
ỹ
ẻ
ỳ
è
õ
ỡ
ẳ
ỷ
ẵ
f
w
z
j
ỵ
'
